/**
 * MODEL INFO
 * ----------
 * Name: 60682_punchflex30
 * Task type: binary classification
 * Quantization: 8 bit
 * Float support: yes
 * Input dimension (with BIAS): 301
 * Inputs min: -23.32 -3.879 -21.361 -0.893 -4.366 -2.16 -24.311 -4.769 -21.639 -1 -4.366 -1.934 -23.118 -6.105 -22.98 -1.385 -4.366 -1.737 -21.524 -6.891 -22.831 -1.985 -4.366 -1.097 -19.532 -7.106 -24.138 -2.305 -4.366 -0.374 -17.095 -6.273 -27.122 -1.523 -4.366 -0.164 -15.165 -5.464 -28.663 -1.582 -4.366 -0.375 -14.437 -5.77 -27.533 -1.226 -4.366 -0.74 -12.804 -5.617 -26.049 -1.189 -4.366 -0.724 -11.933 -5.133 -24.339 -1.137 -3.499 -0.78 -9.596 -4.52 -25.187 -1.59 -2.885 -0.833 -7.202 -4.515 -25.623 -2.339 -2.601 -0.715 -5.473 -4.415 -25.412 -1.842 -1.846 -0.737 -3.845 -3.63 -25.043 -1.4 -1.587 -0.58 -2.701 -3.045 -24.205 -1.094 -1.906 -0.729 -2.332 -2.447 -23.679 -1.728 -1.872 -0.84 -2.734 -2.48 -23.219 -1.83 -1.658 -0.809 -3.577 -2.552 -22.922 -1.752 -1.739 -1.033 -4.18 -2.854 -22.807 -1.813 -1.378 -1.126 -4.453 -2.662 -22.606 -2.11 -1.073 -1.301 -5.444 -2.107 -21.687 -2.342 -1.009 -1.473 -6.158 -2.428 -20.356 -2.08 -0.918 -1.31 -6.713 -3.634 -19.077 -2.174 -1.255 -1.139 -6.9 -3.745 -18.474 -2.196 -1.791 -1.151 -6.79 -3.06 -18.076 -1.951 -1.72 -1.561 -6.546 -4.966 -17.502 -1.852 -1.224 -1.626 -6.22 -7.379 -17.32 -2.125 -0.793 -1.728 -5.746 -7.839 -17.98 -2.112 -0.804 -1.706 -5.607 -5.684 -18.34 -1.979 -0.701 -1.804 -5.282 -4.171 -17.899 -1.944 -0.263 -2.168 -4.875 -4.017 -17.071 -2.063 -0.08 -1.718 -4.515 -4.003 -16.199 -1.995 -0.257 -1.433 -3.936 -3.663 -15.572 -1.826 -0.382 -1.41 -3.256 -1.69 -15.107 -2.231 -0.299 -1.46 -3.199 -1.475 -14.341 -2.729 -0.153 -1.443 -4.041 -1.231 -13.575 -2.454 -0.117 -1.464 -5.066 -1.331 -12.699 -2.657 -0.097 -1.426 -5.454 -1.427 -11.77 -2.456 -0.247 -1.371 -4.922 -1.427 -10.396 -1.773 -0.25 -1.37 -3.467 -1.144 -8.633 -1.617 -0.279 -1.371 -3.074 -1.369 -7.652 -2.417 -1.121 -1.514 -2.844 -1.408 -6.838 -2.744 -1.517 -1.427 -2.667 -1.279 -5.775 -2.449 -1.787 -1.501 -2.413 -1.322 -5.152 -2.018 -1.744 -1.731 -3.749 -1.231 -4.094 -2.646 -1.29 -1.804 -5.282 -1.14 -3.735 -2.389 -1.772 -1.574 -5.928 -0.991 -2.84 -1.728 -2.135 -1.567 -5.095 -0.967 -1.911 -1.893 -1.919 -1.622 -4.271 -0.939 -3.098 -2.35 -1.308 -1.962 -4.918 -0.852 -2.629 -1.787 -1.54 -1.585 1 
 * Inputs max: 2.418 4.319 18.057 3.347 2.855 3.629 2.931 9.041 19.604 2.977 2.48 3.105 2.978 10.238 17.593 4.233 1.495 2.351 2.916 6.843 13.111 4.366 0.529 2.125 5.344 4.539 10.434 4.366 1.133 2.421 8.011 5.267 9.251 4.366 1.668 2.322 9.548 5.148 8.945 4.366 2.084 2.051 10.142 4.827 8.806 4.366 2.308 1.965 10.06 4.697 8.701 4.366 2.535 2.163 9.29 4.683 8.581 3.679 2.945 1.708 8.442 4.764 8.504 3.593 3.525 1.784 7.762 4.918 8.265 2.72 4.045 1.799 7.269 5.033 8.14 1.273 4.363 1.671 7.178 5.143 8.447 0.488 4.366 1.397 7.321 4.994 9.151 0.858 4.366 1.144 7.479 4.64 9.855 1.341 4.366 1.043 7.661 4.357 9.749 1.004 4.366 1.105 7.877 4.156 9.395 0.752 4.366 1.048 8.011 3.994 9.318 0.841 4.366 1.087 8.15 3.903 9.95 1.039 4.366 1.013 9.261 3.859 9.955 1.328 4.366 0.81 10.118 3.73 10.056 1.272 4.366 0.62 10.444 3.917 10.151 1.473 4.366 0.591 10.089 4.171 10.4 1.591 4.366 0.865 9.088 4.415 10.927 1.929 4.366 1.801 9.012 4.616 11.147 2.346 4.366 2.712 10.444 4.664 12.139 2.253 4.366 2.219 10.697 4.626 12.886 2.166 4.366 1.429 8.226 4.434 13.235 1.775 4.366 2.026 7.843 4.324 13.245 2.035 4.366 1.845 7.858 4.238 13.704 1.889 4.366 1.139 8.001 5.468 12.775 1.65 4.366 1.004 8.15 7.082 12 1.276 4.366 0.627 8.289 6.732 11.899 1.6 4.366 0.196 8.317 5.464 12.349 1.28 4.366 0.196 8.246 4.908 14.619 0.694 4.366 0.524 8.222 3.989 17.885 0.583 4.366 0.659 8.112 4.161 19.474 0.693 4.366 0.728 8.107 4.185 19.269 1.315 4.366 0.948 7.949 4.554 18.383 1.229 4.366 1.106 7.887 4.496 14.815 0.775 4.366 0.872 7.757 4.75 16.98 0.437 4.366 0.489 9.069 5.411 17.497 0.411 4.366 0.472 10.314 5.473 16.597 0.758 4.366 0.401 10.755 5.966 16.29 1.109 4.366 0.494 11.473 5.957 16.644 1.33 4.366 0.557 11.186 6.029 19.393 1.345 4.366 0.75 10.415 6.254 19.666 1.354 4.366 0.766 10.511 5.818 18.086 1.395 4.366 1.189 11.291 5.229 19.743 1.453 4.366 1.21 1 
 * Output labels: "0.000000" "1.000000" 
 *
 *
 * INSTRUCTIONS
 * ------------
 * To use model in your project pass data array and length to
 * @CalculatorLoadFromMemory function. For example, in @CalculatorOnInit
 * callback:
 *
 * inline Err CalculatorOnInit(NeuralNet* neuralNet)
 * {
 *     ...
 *     Err err = CalculatorLoadFromMemory(neuralNet, model_bin, model_bin_len, 0);
 *     ...
 * }
 */

const unsigned char model_bin[] = {
 0x6e, 0x62, 0x05, 0x01, 0xcd, 0xab, 0x00, 0x01, 0x2d, 0x01, 0x02, 0x00,
 0x08, 0x00, 0x04, 0x00, 0x0e, 0x00, 0x00, 0x00, 0x83, 0xc0, 0x1a, 0x40,
 0x3f, 0x35, 0x8a, 0x40, 0xbc, 0x74, 0x90, 0x41, 0x3f, 0x35, 0x56, 0x40,
 0x52, 0xb8, 0x36, 0x40, 0x89, 0x41, 0x68, 0x40, 0x81, 0x95, 0x3b, 0x40,
 0xf0, 0xa7, 0x10, 0x41, 0xfe, 0xd4, 0x9c, 0x41, 0x2b, 0x87, 0x3e, 0x40,
 0x52, 0xb8, 0x1e, 0x40, 0x52, 0xb8, 0x46, 0x40, 0x8d, 0x97, 0x3e, 0x40,
 0xd9, 0xce, 0x23, 0x41, 0x77, 0xbe, 0x8c, 0x41, 0xbc, 0x74, 0x87, 0x40,
 0x29, 0x5c, 0xbf, 0x3f, 0xc9, 0x76, 0x16, 0x40, 0xbe, 0x9f, 0x3a, 0x40,
 0xdb, 0xf9, 0xda, 0x40, 0xa8, 0xc6, 0x51, 0x41, 0x46, 0xb6, 0x8b, 0x40,
 0x8b, 0x6c, 0x07, 0x3f, 0x00, 0x00, 0x08, 0x40, 0x0c, 0x02, 0xab, 0x40,
 0x7d, 0x3f, 0x91, 0x40, 0xaa, 0xf1, 0x26, 0x41, 0x46, 0xb6, 0x8b, 0x40,
 0x25, 0x06, 0x91, 0x3f, 0xaa, 0xf1, 0x1a, 0x40, 0x0e, 0x2d, 0x00, 0x41,
 0x44, 0x8b, 0xa8, 0x40, 0x19, 0x04, 0x14, 0x41, 0x46, 0xb6, 0x8b, 0x40,
 0x06, 0x81, 0xd5, 0x3f, 0xa6, 0x9b, 0x14, 0x40, 0x9c, 0xc4, 0x18, 0x41,
 0x6a, 0xbc, 0xa4, 0x40, 0xb8, 0x1e, 0x0f, 0x41, 0x46, 0xb6, 0x8b, 0x40,
 0x42, 0x60, 0x05, 0x40, 0x96, 0x43, 0x03, 0x40, 0xa2, 0x45, 0x22, 0x41,
 0xc9, 0x76, 0x9a, 0x40, 0x60, 0xe5, 0x0c, 0x41, 0x46, 0xb6, 0x8b, 0x40,
 0x46, 0xb6, 0x13, 0x40, 0x1f, 0x85, 0xfb, 0x3f, 0xc3, 0xf5, 0x20, 0x41,
 0xd3, 0x4d, 0x96, 0x40, 0x4c, 0x37, 0x0b, 0x41, 0x46, 0xb6, 0x8b, 0x40,
 0x71, 0x3d, 0x22, 0x40, 0x98, 0x6e, 0x0a, 0x40, 0xd7, 0xa3, 0x14, 0x41,
 0x23, 0xdb, 0x95, 0x40, 0xc7, 0x4b, 0x09, 0x41, 0xbc, 0x74, 0x6b, 0x40,
 0xe1, 0x7a, 0x3c, 0x40, 0xbe, 0x9f, 0xda, 0x3f, 0x6f, 0x12, 0x07, 0x41,
 0xb0, 0x72, 0x98, 0x40, 0x62, 0x10, 0x08, 0x41, 0xb6, 0xf3, 0x65, 0x40,
 0x9a, 0x99, 0x61, 0x40, 0x1d, 0x5a, 0xe4, 0x3f, 0x4e, 0x62, 0xf8, 0x40,
 0x42, 0x60, 0x9d, 0x40, 0x71, 0x3d, 0x04, 0x41, 0x7b, 0x14, 0x2e, 0x40,
 0xa4, 0x70, 0x81, 0x40, 0xa2, 0x45, 0xe6, 0x3f, 0xa6, 0x9b, 0xe8, 0x40,
 0x56, 0x0e, 0xa1, 0x40, 0x71, 0x3d, 0x02, 0x41, 0xaa, 0xf1, 0xa2, 0x3f,
 0xb2, 0x9d, 0x8b, 0x40, 0x54, 0xe3, 0xd5, 0x3f, 0x2d, 0xb2, 0xe5, 0x40,
 0x75, 0x93, 0xa4, 0x40, 0xe9, 0x26, 0x07, 0x41, 0x23, 0xdb, 0xf9, 0x3e,
 0x46, 0xb6, 0x8b, 0x40, 0xe5, 0xd0, 0xb2, 0x3f, 0xa2, 0x45, 0xea, 0x40,
 0xd9, 0xce, 0x9f, 0x40, 0x7f, 0x6a, 0x12, 0x41, 0xe3, 0xa5, 0x5b, 0x3f,
 0x46, 0xb6, 0x8b, 0x40, 0x98, 0x6e, 0x92, 0x3f, 0xf8, 0x53, 0xef, 0x40,
 0xe1, 0x7a, 0x94, 0x40, 0x14, 0xae, 0x1d, 0x41, 0xe3, 0xa5, 0xab, 0x3f,
 0x46, 0xb6, 0x8b, 0x40, 0x06, 0x81, 0x85, 0x3f, 0xe9, 0x26, 0xf5, 0x40,
 0x8b, 0x6c, 0x8b, 0x40, 0xe7, 0xfb, 0x1b, 0x41, 0x12, 0x83, 0x80, 0x3f,
 0x46, 0xb6, 0x8b, 0x40, 0xa4, 0x70, 0x8d, 0x3f, 0x62, 0x10, 0xfc, 0x40,
 0xf4, 0xfd, 0x84, 0x40, 0xec, 0x51, 0x16, 0x41, 0x12, 0x83, 0x40, 0x3f,
 0x46, 0xb6, 0x8b, 0x40, 0xdd, 0x24, 0x86, 0x3f, 0x0e, 0x2d, 0x00, 0x41,
 0xb2, 0x9d, 0x7f, 0x40, 0x87, 0x16, 0x15, 0x41, 0xc7, 0x4b, 0x57, 0x3f,
 0x46, 0xb6, 0x8b, 0x40, 0xd1, 0x22, 0x8b, 0x3f, 0x66, 0x66, 0x02, 0x41,
 0xc1, 0xca, 0x79, 0x40, 0x33, 0x33, 0x1f, 0x41, 0xf4, 0xfd, 0x84, 0x3f,
 0x46, 0xb6, 0x8b, 0x40, 0xfc, 0xa9, 0x81, 0x3f, 0x0e, 0x2d, 0x14, 0x41,
 0xdb, 0xf9, 0x76, 0x40, 0xae, 0x47, 0x1f, 0x41, 0xe7, 0xfb, 0xa9, 0x3f,
 0x46, 0xb6, 0x8b, 0x40, 0x29, 0x5c, 0x4f, 0x3f, 0x54, 0xe3, 0x21, 0x41,
 0x52, 0xb8, 0x6e, 0x40, 0x60, 0xe5, 0x20, 0x41, 0xe5, 0xd0, 0xa2, 0x3f,
 0x46, 0xb6, 0x8b, 0x40, 0x52, 0xb8, 0x1e, 0x3f, 0xa0, 0x1a, 0x27, 0x41,
 0x21, 0xb0, 0x7a, 0x40, 0x7f, 0x6a, 0x22, 0x41, 0x44, 0x8b, 0xbc, 0x3f,
 0x46, 0xb6, 0x8b, 0x40, 0xc7, 0x4b, 0x17, 0x3f, 0x8b, 0x6c, 0x21, 0x41,
 0xd5, 0x78, 0x85, 0x40, 0x66, 0x66, 0x26, 0x41, 0xe3, 0xa5, 0xcb, 0x3f,
 0x46, 0xb6, 0x8b, 0x40, 0xa4, 0x70, 0x5d, 0x3f, 0x73, 0x68, 0x11, 0x41,
 0xae, 0x47, 0x8d, 0x40, 0xfe, 0xd4, 0x2e, 0x41, 0x79, 0xe9, 0xf6, 0x3f,
 0x46, 0xb6, 0x8b, 0x40, 0x2b, 0x87, 0xe6, 0x3f, 0x27, 0x31, 0x10, 0x41,
 0x46, 0xb6, 0x93, 0x40, 0x1d, 0x5a, 0x32, 0x41, 0xdd, 0x24, 0x16, 0x40,
 0x46, 0xb6, 0x8b, 0x40, 0x68, 0x91, 0x2d, 0x40, 0xa0, 0x1a, 0x27, 0x41,
 0x7d, 0x3f, 0x95, 0x40, 0x58, 0x39, 0x42, 0x41, 0x27, 0x31, 0x10, 0x40,
 0x46, 0xb6, 0x8b, 0x40, 0x19, 0x04, 0x0e, 0x40, 0xe9, 0x26, 0x2b, 0x41,
 0x31, 0x08, 0x94, 0x40, 0x0e, 0x2d, 0x4e, 0x41, 0xbe, 0x9f, 0x0a, 0x40,
 0x46, 0xb6, 0x8b, 0x40, 0x79, 0xe9, 0xb6, 0x3f, 0xb2, 0x9d, 0x03, 0x41,
 0x54, 0xe3, 0x8d, 0x40, 0x8f, 0xc2, 0x53, 0x41, 0x33, 0x33, 0xe3, 0x3f,
 0x46, 0xb6, 0x8b, 0x40, 0xfc, 0xa9, 0x01, 0x40, 0xdb, 0xf9, 0xfa, 0x40,
 0x35, 0x5e, 0x8a, 0x40, 0x85, 0xeb, 0x53, 0x41, 0x71, 0x3d, 0x02, 0x40,
 0x46, 0xb6, 0x8b, 0x40, 0xf6, 0x28, 0xec, 0x3f, 0xbc, 0x74, 0xfb, 0x40,
 0xb2, 0x9d, 0x87, 0x40, 0x96, 0x43, 0x5b, 0x41, 0xc1, 0xca, 0xf1, 0x3f,
 0x46, 0xb6, 0x8b, 0x40, 0xc1, 0xca, 0x91, 0x3f, 0x19, 0x04, 0x00, 0x41,
 0xdb, 0xf9, 0xae, 0x40, 0x66, 0x66, 0x4c, 0x41, 0x33, 0x33, 0xd3, 0x3f,
 0x46, 0xb6, 0x8b, 0x40, 0x12, 0x83, 0x80, 0x3f, 0x66, 0x66, 0x02, 0x41,
 0xbe, 0x9f, 0xe2, 0x40, 0x00, 0x00, 0x40, 0x41, 0xf8, 0x53, 0xa3, 0x3f,
 0x46, 0xb6, 0x8b, 0x40, 0x12, 0x83, 0x20, 0x3f, 0xbe, 0x9f, 0x04, 0x41,
 0x8b, 0x6c, 0xd7, 0x40, 0x4e, 0x62, 0x3e, 0x41, 0xcd, 0xcc, 0xcc, 0x3f,
 0x46, 0xb6, 0x8b, 0x40, 0x39, 0xb4, 0x48, 0x3e, 0x6f, 0x12, 0x05, 0x41,
 0x17, 0xd9, 0xae, 0x40, 0x81, 0x95, 0x45, 0x41, 0x0a, 0xd7, 0xa3, 0x3f,
 0x46, 0xb6, 0x8b, 0x40, 0x39, 0xb4, 0x48, 0x3e, 0x9e, 0xef, 0x03, 0x41,
 0x56, 0x0e, 0x9d, 0x40, 0x6d, 0xe7, 0x69, 0x41, 0xfc, 0xa9, 0x31, 0x3f,
 0x46, 0xb6, 0x8b, 0x40, 0xdd, 0x24, 0x06, 0x3f, 0x50, 0x8d, 0x03, 0x41,
 0xc7, 0x4b, 0x7f, 0x40, 0x7b, 0x14, 0x8f, 0x41, 0x7d, 0x3f, 0x15, 0x3f,
 0x46, 0xb6, 0x8b, 0x40, 0x39, 0xb4, 0x28, 0x3f, 0xc1, 0xca, 0x01, 0x41,
 0xe9, 0x26, 0x85, 0x40, 0xc1, 0xca, 0x9b, 0x41, 0x73, 0x68, 0x31, 0x3f,
 0x46, 0xb6, 0x8b, 0x40, 0x35, 0x5e, 0x3a, 0x3f, 0x46, 0xb6, 0x01, 0x41,
 0x85, 0xeb, 0x85, 0x40, 0xe9, 0x26, 0x9a, 0x41, 0xec, 0x51, 0xa8, 0x3f,
 0x46, 0xb6, 0x8b, 0x40, 0x21, 0xb0, 0x72, 0x3f, 0x35, 0x5e, 0xfe, 0x40,
 0x5e, 0xba, 0x91, 0x40, 0x62, 0x10, 0x93, 0x41, 0xdf, 0x4f, 0x9d, 0x3f,
 0x46, 0xb6, 0x8b, 0x40, 0x68, 0x91, 0x8d, 0x3f, 0x4e, 0x62, 0xfc, 0x40,
 0x3b, 0xdf, 0x8f, 0x40, 0x3d, 0x0a, 0x6d, 0x41, 0x66, 0x66, 0x46, 0x3f,
 0x46, 0xb6, 0x8b, 0x40, 0x64, 0x3b, 0x5f, 0x3f, 0x58, 0x39, 0xf8, 0x40,
 0x00, 0x00, 0x98, 0x40, 0x0a, 0xd7, 0x87, 0x41, 0x77, 0xbe, 0xdf, 0x3e,
 0x46, 0xb6, 0x8b, 0x40, 0x35, 0x5e, 0xfa, 0x3e, 0xa0, 0x1a, 0x11, 0x41,
 0xe9, 0x26, 0xad, 0x40, 0xdb, 0xf9, 0x8b, 0x41, 0x98, 0x6e, 0xd2, 0x3e,
 0x46, 0xb6, 0x8b, 0x40, 0xfc, 0xa9, 0xf1, 0x3e, 0x25, 0x06, 0x25, 0x41,
 0xd1, 0x22, 0xaf, 0x40, 0xa8, 0xc6, 0x84, 0x41, 0x4a, 0x0c, 0x42, 0x3f,
 0x46, 0xb6, 0x8b, 0x40, 0xdf, 0x4f, 0xcd, 0x3e, 0x7b, 0x14, 0x2c, 0x41,
 0x79, 0xe9, 0xbe, 0x40, 0xec, 0x51, 0x82, 0x41, 0xb6, 0xf3, 0x8d, 0x3f,
 0x46, 0xb6, 0x8b, 0x40, 0x91, 0xed, 0xfc, 0x3e, 0x68, 0x91, 0x37, 0x41,
 0xbe, 0x9f, 0xbe, 0x40, 0xe9, 0x26, 0x85, 0x41, 0x71, 0x3d, 0xaa, 0x3f,
 0x46, 0xb6, 0x8b, 0x40, 0x8d, 0x97, 0x0e, 0x3f, 0xdb, 0xf9, 0x32, 0x41,
 0x91, 0xed, 0xc0, 0x40, 0xdd, 0x24, 0x9b, 0x41, 0xf6, 0x28, 0xac, 0x3f,
 0x46, 0xb6, 0x8b, 0x40, 0x00, 0x00, 0x40, 0x3f, 0xd7, 0xa3, 0x26, 0x41,
 0xc5, 0x20, 0xc8, 0x40, 0xf8, 0x53, 0x9d, 0x41, 0xdf, 0x4f, 0xad, 0x3f,
 0x46, 0xb6, 0x8b, 0x40, 0x93, 0x18, 0x44, 0x3f, 0x0e, 0x2d, 0x28, 0x41,
 0x0e, 0x2d, 0xba, 0x40, 0x21, 0xb0, 0x90, 0x41, 0x5c, 0x8f, 0xb2, 0x3f,
 0x46, 0xb6, 0x8b, 0x40, 0x27, 0x31, 0x98, 0x3f, 0xf0, 0xa7, 0x34, 0x41,
 0xf8, 0x53, 0xa7, 0x40, 0xaa, 0xf1, 0x9d, 0x41, 0xe7, 0xfb, 0xb9, 0x3f,
 0x46, 0xb6, 0x8b, 0x40, 0x48, 0xe1, 0x9a, 0x3f, 0x00, 0x00, 0x80, 0x3f,
 0x5c, 0x8f, 0xba, 0xc1, 0x89, 0x41, 0x78, 0xc0, 0x54, 0xe3, 0xaa, 0xc1,
 0xa6, 0x9b, 0x64, 0xbf, 0x46, 0xb6, 0x8b, 0xc0, 0x71, 0x3d, 0x0a, 0xc0,
 0xee, 0x7c, 0xc2, 0xc1, 0xa6, 0x9b, 0x98, 0xc0, 0xac, 0x1c, 0xad, 0xc1,
 0x00, 0x00, 0x80, 0xbf, 0x46, 0xb6, 0x8b, 0xc0, 0x50, 0x8d, 0xf7, 0xbf,
 0xaa, 0xf1, 0xb8, 0xc1, 0x29, 0x5c, 0xc3, 0xc0, 0x0a, 0xd7, 0xb7, 0xc1,
 0xae, 0x47, 0xb1, 0xbf, 0x46, 0xb6, 0x8b, 0xc0, 0x04, 0x56, 0xde, 0xbf,
 0x27, 0x31, 0xac, 0xc1, 0x12, 0x83, 0xdc, 0xc0, 0xe3, 0xa5, 0xb6, 0xc1,
 0x7b, 0x14, 0xfe, 0xbf, 0x46, 0xb6, 0x8b, 0xc0, 0x7f, 0x6a, 0x8c, 0xbf,
 0x89, 0x41, 0x9c, 0xc1, 0x5a, 0x64, 0xe3, 0xc0, 0xa0, 0x1a, 0xc1, 0xc1,
 0x1f, 0x85, 0x13, 0xc0, 0x46, 0xb6, 0x8b, 0xc0, 0xee, 0x7c, 0xbf, 0xbe,
 0x8f, 0xc2, 0x88, 0xc1, 0x6a, 0xbc, 0xc8, 0xc0, 0xdb, 0xf9, 0xd8, 0xc1,
 0xaa, 0xf1, 0xc2, 0xbf, 0x46, 0xb6, 0x8b, 0xc0, 0x9e, 0xef, 0x27, 0xbe,
 0xd7, 0xa3, 0x72, 0xc1, 0x17, 0xd9, 0xae, 0xc0, 0xd3, 0x4d, 0xe5, 0xc1,
 0xfa, 0x7e, 0xca, 0xbf, 0x46, 0xb6, 0x8b, 0xc0, 0x00, 0x00, 0xc0, 0xbe,
 0xf4, 0xfd, 0x66, 0xc1, 0xd7, 0xa3, 0xb8, 0xc0, 0x96, 0x43, 0xdc, 0xc1,
 0x91, 0xed, 0x9c, 0xbf, 0x46, 0xb6, 0x8b, 0xc0, 0xa4, 0x70, 0x3d, 0xbf,
 0x2f, 0xdd, 0x4c, 0xc1, 0x77, 0xbe, 0xb3, 0xc0, 0x5a, 0x64, 0xd0, 0xc1,
 0x27, 0x31, 0x98, 0xbf, 0x46, 0xb6, 0x8b, 0xc0, 0x10, 0x58, 0x39, 0xbf,
 0x91, 0xed, 0x3e, 0xc1, 0x89, 0x41, 0xa4, 0xc0, 0x46, 0xb6, 0xc2, 0xc1,
 0x37, 0x89, 0x91, 0xbf, 0x9e, 0xef, 0x5f, 0xc0, 0x14, 0xae, 0x47, 0xbf,
 0x37, 0x89, 0x19, 0xc1, 0xd7, 0xa3, 0x90, 0xc0, 0xfa, 0x7e, 0xc9, 0xc1,
 0x1f, 0x85, 0xcb, 0xbf, 0xd7, 0xa3, 0x38, 0xc0, 0x7d, 0x3f, 0x55, 0xbf,
 0xc9, 0x76, 0xe6, 0xc0, 0xe1, 0x7a, 0x90, 0xc0, 0xe7, 0xfb, 0xcc, 0xc1,
 0x2d, 0xb2, 0x15, 0xc0, 0xc9, 0x76, 0x26, 0xc0, 0x3d, 0x0a, 0x37, 0xbf,
 0xd1, 0x22, 0xaf, 0xc0, 0xae, 0x47, 0x8d, 0xc0, 0xc7, 0x4b, 0xcb, 0xc1,
 0xa8, 0xc6, 0xeb, 0xbf, 0xba, 0x49, 0xec, 0xbf, 0x08, 0xac, 0x3c, 0xbf,
 0x7b, 0x14, 0x76, 0xc0, 0xec, 0x51, 0x68, 0xc0, 0x10, 0x58, 0xc8, 0xc1,
 0x33, 0x33, 0xb3, 0xbf, 0xd1, 0x22, 0xcb, 0xbf, 0xe1, 0x7a, 0x14, 0xbf,
 0x2f, 0xdd, 0x2c, 0xc0, 0x48, 0xe1, 0x42, 0xc0, 0xd7, 0xa3, 0xc1, 0xc1,
 0x31, 0x08, 0x8c, 0xbf, 0xcf, 0xf7, 0xf3, 0xbf, 0xbe, 0x9f, 0x3a, 0xbf,
 0x7d, 0x3f, 0x15, 0xc0, 0xa6, 0x9b, 0x1c, 0xc0, 0x98, 0x6e, 0xbd, 0xc1,
 0x1b, 0x2f, 0xdd, 0xbf, 0xb2, 0x9d, 0xef, 0xbf, 0x3d, 0x0a, 0x57, 0xbf,
 0xdb, 0xf9, 0x2e, 0xc0, 0x52, 0xb8, 0x1e, 0xc0, 0x83, 0xc0, 0xb9, 0xc1,
 0x71, 0x3d, 0xea, 0xbf, 0x58, 0x39, 0xd4, 0xbf, 0xa0, 0x1a, 0x4f, 0xbf,
 0x91, 0xed, 0x64, 0xc0, 0xf8, 0x53, 0x23, 0xc0, 0x42, 0x60, 0xb7, 0xc1,
 0x89, 0x41, 0xe0, 0xbf, 0x8d, 0x97, 0xde, 0xbf, 0x58, 0x39, 0x84, 0xbf,
 0x8f, 0xc2, 0x85, 0xc0, 0xf0, 0xa7, 0x36, 0xc0, 0xbc, 0x74, 0xb6, 0xc1,
 0x62, 0x10, 0xe8, 0xbf, 0x4e, 0x62, 0xb0, 0xbf, 0xc5, 0x20, 0x90, 0xbf,
 0xfa, 0x7e, 0x8e, 0xc0, 0x35, 0x5e, 0x2a, 0xc0, 0x17, 0xd9, 0xb4, 0xc1,
 0x3d, 0x0a, 0x07, 0xc0, 0x10, 0x58, 0x89, 0xbf, 0x2b, 0x87, 0xa6, 0xbf,
 0x3f, 0x35, 0xae, 0xc0, 0x17, 0xd9, 0x06, 0xc0, 0xfa, 0x7e, 0xad, 0xc1,
 0x54, 0xe3, 0x15, 0xc0, 0xe9, 0x26, 0x81, 0xbf, 0x44, 0x8b, 0xbc, 0xbf,
 0x56, 0x0e, 0xc5, 0xc0, 0x5a, 0x64, 0x1b, 0xc0, 0x17, 0xd9, 0xa2, 0xc1,
 0xb8, 0x1e, 0x05, 0xc0, 0x0c, 0x02, 0x6b, 0xbf, 0x14, 0xae, 0xa7, 0xbf,
 0xe5, 0xd0, 0xd6, 0xc0, 0x75, 0x93, 0x68, 0xc0, 0xb2, 0x9d, 0x98, 0xc1,
 0xd1, 0x22, 0x0b, 0xc0, 0xd7, 0xa3, 0xa0, 0xbf, 0xc1, 0xca, 0x91, 0xbf,
 0xcd, 0xcc, 0xdc, 0xc0, 0x14, 0xae, 0x6f, 0xc0, 0xc1, 0xca, 0x93, 0xc1,
 0x44, 0x8b, 0x0c, 0xc0, 0x7d, 0x3f, 0xe5, 0xbf, 0xf8, 0x53, 0x93, 0xbf,
 0xae, 0x47, 0xd9, 0xc0, 0x0a, 0xd7, 0x43, 0xc0, 0xa6, 0x9b, 0x90, 0xc1,
 0x5e, 0xba, 0xf9, 0xbf, 0xf6, 0x28, 0xdc, 0xbf, 0xd9, 0xce, 0xc7, 0xbf,
 0xd5, 0x78, 0xd1, 0xc0, 0x79, 0xe9, 0x9e, 0xc0, 0x19, 0x04, 0x8c, 0xc1,
 0x56, 0x0e, 0xed, 0xbf, 0x08, 0xac, 0x9c, 0xbf, 0xc5, 0x20, 0xd0, 0xbf,
 0x3d, 0x0a, 0xc7, 0xc0, 0xc5, 0x20, 0xec, 0xc0, 0x5c, 0x8f, 0x8a, 0xc1,
 0x00, 0x00, 0x08, 0xc0, 0x0c, 0x02, 0x4b, 0xbf, 0x1b, 0x2f, 0xdd, 0xbf,
 0x3b, 0xdf, 0xb7, 0xc0, 0x17, 0xd9, 0xfa, 0xc0, 0x0a, 0xd7, 0x8f, 0xc1,
 0x02, 0x2b, 0x07, 0xc0, 0xf2, 0xd2, 0x4d, 0xbf, 0x35, 0x5e, 0xda, 0xbf,
 0x8b, 0x6c, 0xb3, 0xc0, 0x54, 0xe3, 0xb5, 0xc0, 0x52, 0xb8, 0x92, 0xc1,
 0xdf, 0x4f, 0xfd, 0xbf, 0xbc, 0x74, 0x33, 0xbf, 0x79, 0xe9, 0xe6, 0xbf,
 0x25, 0x06, 0xa9, 0xc0, 0xd5, 0x78, 0x85, 0xc0, 0x27, 0x31, 0x8f, 0xc1,
 0xfe, 0xd4, 0xf8, 0xbf, 0xf0, 0xa7, 0x86, 0xbe, 0x83, 0xc0, 0x0a, 0xc0,
 0x00, 0x00, 0x9c, 0xc0, 0x44, 0x8b, 0x80, 0xc0, 0x68, 0x91, 0x88, 0xc1,
 0x31, 0x08, 0x04, 0xc0, 0x0a, 0xd7, 0xa3, 0xbd, 0x6d, 0xe7, 0xdb, 0xbf,
 0xe1, 0x7a, 0x90, 0xc0, 0x93, 0x18, 0x80, 0xc0, 0x8d, 0x97, 0x81, 0xc1,
 0x29, 0x5c, 0xff, 0xbf, 0x81, 0x95, 0x83, 0xbe, 0x8b, 0x6c, 0xb7, 0xbf,
 0x6d, 0xe7, 0x7b, 0xc0, 0x98, 0x6e, 0x6a, 0xc0, 0xe9, 0x26, 0x79, 0xc1,
 0x5e, 0xba, 0xe9, 0xbf, 0x81, 0x95, 0xc3, 0xbe, 0xe1, 0x7a, 0xb4, 0xbf,
 0x4e, 0x62, 0x50, 0xc0, 0xec, 0x51, 0xd8, 0xbf, 0x46, 0xb6, 0x71, 0xc1,
 0xb4, 0xc8, 0x0e, 0xc0, 0x87, 0x16, 0x99, 0xbe, 0x48, 0xe1, 0xba, 0xbf,
 0x6a, 0xbc, 0x4c, 0xc0, 0xcd, 0xcc, 0xbc, 0xbf, 0xbc, 0x74, 0x65, 0xc1,
 0xf0, 0xa7, 0x2e, 0xc0, 0x08, 0xac, 0x1c, 0xbe, 0x39, 0xb4, 0xb8, 0xbf,
 0xdf, 0x4f, 0x81, 0xc0, 0x68, 0x91, 0x9d, 0xbf, 0x33, 0x33, 0x59, 0xc1,
 0x56, 0x0e, 0x1d, 0xc0, 0xb2, 0x9d, 0xef, 0xbd, 0x5a, 0x64, 0xbb, 0xbf,
 0xac, 0x1c, 0xa2, 0xc0, 0x35, 0x5e, 0xaa, 0xbf, 0x1b, 0x2f, 0x4b, 0xc1,
 0x4a, 0x0c, 0x2a, 0xc0, 0xf0, 0xa7, 0xc6, 0xbd, 0x2b, 0x87, 0xb6, 0xbf,
 0x2b, 0x87, 0xae, 0xc0, 0xf0, 0xa7, 0xb6, 0xbf, 0xec, 0x51, 0x3c, 0xc1,
 0x1b, 0x2f, 0x1d, 0xc0, 0x91, 0xed, 0x7c, 0xbe, 0xee, 0x7c, 0xaf, 0xbf,
 0x06, 0x81, 0x9d, 0xc0, 0xf0, 0xa7, 0xb6, 0xbf, 0x04, 0x56, 0x26, 0xc1,
 0xaa, 0xf1, 0xe2, 0xbf, 0x00, 0x00, 0x80, 0xbe, 0x29, 0x5c, 0xaf, 0xbf,
 0x54, 0xe3, 0x5d, 0xc0, 0x98, 0x6e, 0x92, 0xbf, 0xc5, 0x20, 0x0a, 0xc1,
 0xdb, 0xf9, 0xce, 0xbf, 0x17, 0xd9, 0x8e, 0xbe, 0xee, 0x7c, 0xaf, 0xbf,
 0x6a, 0xbc, 0x44, 0xc0, 0x64, 0x3b, 0xaf, 0xbf, 0x2f, 0xdd, 0xf4, 0xc0,
 0x21, 0xb0, 0x1a, 0xc0, 0xee, 0x7c, 0x8f, 0xbf, 0xc1, 0xca, 0xc1, 0xbf,
 0x19, 0x04, 0x36, 0xc0, 0x58, 0x39, 0xb4, 0xbf, 0xe5, 0xd0, 0xda, 0xc0,
 0xb2, 0x9d, 0x2f, 0xc0, 0x0e, 0x2d, 0xc2, 0xbf, 0xf0, 0xa7, 0xb6, 0xbf,
 0x21, 0xb0, 0x2a, 0xc0, 0x46, 0xb6, 0xa3, 0xbf, 0xcd, 0xcc, 0xb8, 0xc0,
 0x6a, 0xbc, 0x1c, 0xc0, 0x6a, 0xbc, 0xe4, 0xbf, 0xc5, 0x20, 0xc0, 0xbf,
 0x98, 0x6e, 0x1a, 0xc0, 0x4c, 0x37, 0xa9, 0xbf, 0x2f, 0xdd, 0xa4, 0xc0,
 0xe9, 0x26, 0x01, 0xc0, 0x64, 0x3b, 0xdf, 0xbf, 0x68, 0x91, 0xdd, 0xbf,
 0x9e, 0xef, 0x6f, 0xc0, 0x68, 0x91, 0x9d, 0xbf, 0x0c, 0x02, 0x83, 0xc0,
 0x10, 0x58, 0x29, 0xc0, 0xb8, 0x1e, 0xa5, 0xbf, 0x79, 0xe9, 0xe6, 0xbf,
 0x25, 0x06, 0xa9, 0xc0, 0x85, 0xeb, 0x91, 0xbf, 0x3d, 0x0a, 0x6f, 0xc0,
 0x60, 0xe5, 0x18, 0xc0, 0xe5, 0xd0, 0xe2, 0xbf, 0xd5, 0x78, 0xc9, 0xbf,
 0x2d, 0xb2, 0xbd, 0xc0, 0x2d, 0xb2, 0x7d, 0xbf, 0x8f, 0xc2, 0x35, 0xc0,
 0x1b, 0x2f, 0xdd, 0xbf, 0xd7, 0xa3, 0x08, 0xc0, 0x75, 0x93, 0xc8, 0xbf,
 0x3d, 0x0a, 0xa3, 0xc0, 0x50, 0x8d, 0x77, 0xbf, 0xa6, 0x9b, 0xf4, 0xbf,
 0xd3, 0x4d, 0xf2, 0xbf, 0xcb, 0xa1, 0xf5, 0xbf, 0xb2, 0x9d, 0xcf, 0xbf,
 0x08, 0xac, 0x88, 0xc0, 0x4e, 0x62, 0x70, 0xbf, 0xa2, 0x45, 0x46, 0xc0,
 0x66, 0x66, 0x16, 0xc0, 0x8b, 0x6c, 0xa7, 0xbf, 0xd1, 0x22, 0xfb, 0xbf,
 0x42, 0x60, 0x9d, 0xc0, 0xac, 0x1c, 0x5a, 0xbf, 0x89, 0x41, 0x28, 0xc0,
 0x6a, 0xbc, 0xe4, 0xbf, 0xb8, 0x1e, 0xc5, 0xbf, 0x48, 0xe1, 0xca, 0xbf,
 0x00, 0x00, 0x80, 0x3f, 0x00, 0x00, 0x80, 0x3f, 0x00, 0x00, 0x80, 0x3f,
 0x00, 0x00, 0x00, 0x00, 0x00, 0x00, 0x00, 0x00, 0x01, 0x00, 0x03, 0x00,
 0x00, 0x00, 0x01, 0x00, 0x00, 0x00, 0x01, 0x00, 0x05, 0x00, 0x01, 0x00,
 0x05, 0x00, 0x01, 0x00, 0x00, 0x00, 0x02, 0x00, 0x26, 0x00, 0x58, 0x00,
 0x7b, 0x00, 0x81, 0x00, 0x2c, 0x01, 0x2c, 0x01, 0x1c, 0x00, 0x64, 0x00,
 0x9a, 0x00, 0xb0, 0x00, 0x2c, 0x01, 0x2c, 0x01, 0x80, 0x80, 0x80, 0x3d,
 0xbf, 0xfe, 0x7c, 0x13, 0x80, 0x80, 0xbf, 0x7c, 0xfe, 0x11, 0x7b, 0x6a,
 0x4f, 0x94, 0x95, 0xd8, 0x81, 0x4a
};
const unsigned int model_bin_len = 2514;
